h e
  t
  a
  s
  w
n d
 t he
 a nd
 t o
  b
r e
 w a
  f
i t
h a
  l
  c
  d
  he
  o
" "
  m
v e
n g
  p
 wa s
  T
i s
i ng
n e
i l
 s a
  g
i d
k e
  ha
  S
 T he
n t
u t
i m
r o
  it
 s o
H e
r y
h o
  He
 S he
r a
 b e
  e
 c a
n o
 l o
i e
 The y
u l
 m o
  y
 f o
 d a
 sa id
 w e
i g
  ""
il y
h is
 s t
ke d
  I
 c o
 s he
 w it
 t ha
 m a
 wit h
L ily
  no
u s
 y o
 yo u
 o f
 p l
i c
  his
 pl a
 d o
u p
ve ry
 da y
 tha t
 g o
  up
r ie
 pla y
 ha d
u g
 the y
  Lily
n c
 b a
 mo m
n a
  ho
 fo r
  B
id e
ul d
 b o
' s
u nd
 ha p
 hap p
 wa nt
it t
 w o
im e
  re
nc e
 no t
 a l
  ne
  very
itt l
ittl e
 t ime
 l ittle
  

 the re
h ing
  M
 f e
 happ y
 s m
 b ig
  is
 I t
 p a
 b ut
 sa w
rie nd
. ""
 f riend
 a s
 s e
 so m
 som e
O ne
il e
n y
' t
u c
! ""
 lo o
il l
ve d
 we re
O nce
n s
 to o
 f a
 l e
u d
 st a
 a re
  j
 want e
 wante d
 up o
 upo n
  ra
 the m
 o ut
 a t
 c l
i nd
 the i
 thei r
us e
 t a
 s p
  A
 d id
 co uld
 he l
  na
 sm ile
 ha ve
 m e
 B e
ro und
 e x
 se e
 d e
ro m
 s ho
 we nt
 f l
 l a
  J
 Be n
im m
 T o
? ""
i a
 friend s
u m
 na m
 nam e
ic e
 al l
 hel p
 ba c
 bac k
 fe l
imm y
 sa y
Y o
Yo u
 s c
 To m
 g a
 S a
 smile d
 name d
 sta r
t hing
 lo ved
  One
 as ked
 to y
 e a
 he a
 fel t
 loo ked
 a round
 w he
  W
 ma ke
i o
 T immy
 pa r
 st o
 bo y
 wo uld
 star t
u e
Ã ¢
Ã¢ â
‚ ¬
Ã¢â ‚¬
 re a
 ca r
 w ha
 p e
 p o
 a g
 wo r
 g e
 wha t
 le a
 be a
 a w
i nt
 ma d
, ""
 B ut
 aw a
 t re
  You
 awa y
 say s
 start e
 starte d
 ra n
 M a
 sc a
 wa l
 wa t
 t hing
 mad e
 some thing
 to g
 tog e
 toge t
 toget he
 togethe r
 par k
 o t
 loo k
 sa d
 ot he
 othe r
 ex c
 ne w
 p ut
 f rom
 go o
h ug
  hug
ic k
 ho m
 hom e
 exc it
 ag a
 aga i
 goo d
c ide
 w ho
rie d
 agai n
 fo und
uc h
 M o
 co m
 whe n
us t
 ge t
 t e
 excit e
 a b
 play ing
 g ra
 b l
 s w
  E
 cl o
 tre e
 thing s
 ca m
 de cide
 fe e
 excite d
i ked
 l iked
 go t
 cam e
i ne
 hea r
 o ne
 s ha
 sca re
 sp e
 decide d
 e very
 you r
  D
 Mo m
k no
 t ho
 scare d
 do g
 do w
 ca re
 f ind
n na
 dow n
  kno
 be c
ud d
 ba l
 tho ug
 thoug h
 tha n
 fee l
 s l
 ta ke
u nt
 da d
uc k
 J a
 m y
 ab o
ro o
  ke
 w ill
 bec a
 did n
 al w
 alw a
 alwa y
 alway s
 too k
 abo ut
 mom m
 lo t
 momm y
 toy s
c ia
 out s
 outs ide
 o l
 though t
 bal l
 lea r
  F
 mo re
cia l
 fl o
 Sa m
roo m
 ol d
 kno w
  int
 p re
z e
n ing
 y e
 la ug
ul l
 spe cial
i p
udd e
ns ide
 ca t
udde n
 Ma x
L e
 a ny
udden l
uddenl y
 ho w
 co l
 ex p
 sho w
 ho use
 o ve
 t w
 sm a
 m uch
r ig
ro w
 ha nd
v o
 care f
 o p
 j o
 wal k
 op e
N o
 int o
 t ried
i nside
  inside
 to l
 tol d
im a
 wat e
 t his
um p
ro ud
 p roud
  q
 ove r
 could n
 W e
 S o
 ga ve
 hear d
 play e
 wate r
 Sa ra
 ne ve
 neve r
rig h
righ t
Le t
 ea c
 eac h
 clo s
  room
 exp l
 E very
 clos e
 ea t
i re
 pre t
i ved
 A nna
 playe d
 hug g
 b ra
 ca l
 j ust
 hugg e
 hugge d
 g re
io us
n ice
  nice
 of f
 wat c
 rea l
 a d
 bo x
 D a
' m
H is
 beca use
 ne e
 nee d
 ma ny
 bea r
 bo t
 com e
 sma l
 smal l
 a m
v ing
 lo ng
 sto p
ng ry
n ima
nima l
 a nimal
 t ry
 be t
  unt
il d
 Ja c
 unt il
 Jac k
 lear ne
 q u
k ind
  kind
 learne d
 J o
C a
 co o
 flo w
 bet t
 bett e
 bette r
 le t
 be s
 sha re
 ho p
Y e
 cal l
ve nt
 c he
 flow e
 flowe r
i na
 fa s
 e nd
 bes t
 no is
 me a
Ye s
ro t
 cl e
 M ia
 expl o
 A nd
 ga r
 sa f
Ã¢â‚¬ Å
Ã¢â‚¬Å “
 gar d
 gard e
 d re
  use
 fas t
 caref ul
u b
 bea ut
 saf e
 garde n
vent u
 than ked
 g l
 laug he
 laughe d
 b y
 j ump
ze d
 lo ud
 be e
 bo o
 ta l
i ny
 nois e
Ca n
 wa y
 beaut i
 beauti f
ro ng
im p
 l is
 lis t
 beautif ul
 lot s
 list e
 st ill
 fa m
 animal s
 fl e
 c ha
  und
 wa it
ro c
 und e
 unde r
 sta y
 no d
 bot h
  His
 it s
 d is
 o w
ic ked
 cle a
 F rom
 ho l
 col o
 tw o
 ba d
  Ã¢â‚¬Å“
 boo k
  imp
 re m
 w is
 to w
 l ived
 fo o
 bra ve
 rea d
uc y
L ucy
 d ra
 wal ked
um m
 sho uld
 do l
 a ngry
 fam ily
 W he
 a f
 pe o
 peo p
 peop l
 peopl e
 fle w
h re
 call e
 calle d
 so o
 re d
 explo re
 t hre
ro ug
 soo n
h ile
 ke p
 kep t
roug h
 fo re
 fl y
 pret t
 a c
 c re
Ã¢â‚¬ â
 do o
 doo r
 go ing
  P
 re s
 prett y
 ke e
 re p
 kee p
h ig
  hig
 no w
  roc
 ad ventu
umm y
 bl o
 ope ne
 opene d
h iny
 s hiny
 dol l
 sp o
 a p
 w ind
ide a
 c ry
 te a
 be f
  idea
 bef o
 t ra
 befo re
 feel ing
 c ra
ina l
W ha
Wha t
 pla c
 rea c
 plac e
 g round
 fa r
 for g
 al s
 als o
„ ¢
Ã¢â‚¬â „¢
 e y
 ey e
ic t
 but t
 nod d
 cre a
 Whe n
rie s
 se a
L o
 nodd e
 nodde d
r ious
 happ e
im b
 p icked
 colo r
  Lucy
 ne x
 nex t
 walk ing
 fo l
 B o
 cl imb
 Da d
 ha s
 f is
 w hile
 not ice
 pe r
 be d
 adventu re
i x
 o k
 e l
 gra b
 as k
 ne a
 b re
inal l
inall y
r uck
  G
 be ing
 be l
 foo d
 S p
 wor k
ict u
 rep l
ictu re
 p icture
  vo
n ig
nig h
nigh t
 sl ide
 ga m
 gam e
 roc k
 look ing
 de l
 stop p
 t ruck
 eye s
 stopp e
 stoppe d
 bo a
 af t
 aft e
 afte r
 bre a
 Bo b
 imp o
 wo nd
 S uddenly
 gre a
 wond e
 grea t
 show e
 rem e
 reme m
 remem b
 rememb e
 hand s
S uddenly
ine d
 sho ut
 hea d
 impo r
 impor t
 import a
 fore s
 flower s
 bl ue
ick l
 notice d
 fores t
 T ha
i zed
 clea n
 ap p
 nea r
ro p
 we a
 importa nt
 fis h
 watc he
Lo o
 so und
Loo k
 repl ie
 te l
 replie d
 am a
 gl a
 showe d
ns t
 ra b
 rab b
 rabb it
 ok a
 oka y
 lea ve
 vo ice
 coo k
n is
 la d
 D o
 sw ing
  right
 sw e
 liste n
 ye a
 watche d
 yea r
 b right
il a
ickl y
 fol l
 foll o
 follo w
 Sp o
 Spo t
 every o
 everyo ne
 st rong
 ye l
 s q
 bee n
 st e
h ild
 qu ickly
 Mom m
 whe re
 yel l
 Momm y
A nna
 good b
 goodb y
 goodby e
 c hild
 boa t
 S ue
 beca m
 becam e
 sto re
u rious
v a
 hig h
  R
 close r
 che e
ro s
 do e
 doe s
 cl a
 dre s
 dres s
 p ie
 m is
 c urious
 ma g
 tel l
 fa vo
 thre e
L ila
 help e
  night
 he re
 any m
 anym o
 anymo re
 blo c
 tre a
 p ull
 grab b
 swe e
ire d
 butt e
 so f
 butte r
 bloc k
 mea n
k id
 swee t
  kid
 hop p
 grabb e
 grabbe d
 Jo h
n ning
 be g
 fel l
 s ing
 bl a
 reac he
 jump e
 co nt
 jumpe d
 gla d
 sa nd
 Joh n
i b
 al o
 helpe d
 see s
 f ire
i nis
 s na
 st ick
 Sara h
 lo s
 f inis
 ha t
ip p
 gra s
 happe ne
 happene d
 pl e
u f
 st ra
 sp a
 gras s
 shout e
 shoute d
uf f
 sto ry
  Let
 Ja ne
rot he
rothe r
 me s
 pa t
 reache d
 ta s
 real ized
 y ummy
 b rother
 sq u
 lad y
 ple a
 dra w
im s
um b
 ha ving
 sof t
 A s
 favo r
 wonde r
 gre e
 favor it
 favorit e
' re
 mes s
 s ig
 res t
 plea s
 at e
 le s
 les s
 under s
 unders t
 Every o
 ba r
 Everyo ne
nst e
z y
" "
 he r
i n
e d
  in
i r
e r
 o n
T he
  h
u n
. "
u r
l y
 g ir
 gir l
 h im
s t
i ke
o m
 ca n
 l ike
 f un
  k
a r
  r
 b ir
i f
o r
 bir d
o w
o n
i ve
re d
e t
 the n
c k
he d
e n
ig h
a t
 a n
 ma n
c h
 T im
a m
 t h
The y
igh t
 k ne
c t
 e ve
a y
l ly
e p
 so r
 kne w
a n
 sor ry
B ut
T ha
 s k
ug h
  if
T om
ar d
M om
l ed
 lo ve
ne d
io n
ke t
ur t
o d
e nt
l d
a d
 s un
 o r
 ha r
 do n
ur p
re nt
 sk y
I t
 He r
 eve n
o t
 har d
W he
e ct
 w h
 h urt
 The n
 a r
b y
 g ive
 s h
urp r
urpr is
ne r
  ro
ugh t
 s urpris
Whe n
s ed
 th in
! "
 r u
if f
o p
B en
ill y
 r un
 t r
 e n
  v
a p
Tha t
 b it
 thin k
 wa r
a g
o y
 d r
 k it
Tha n
Than k
a ra
nc h
 d iff
j oy
e nd
is t
i ns
 p r
 en joy
 eve r
S he
ir st
ne y
e ep
ro ke
  us
 diff e
 b r
a nd
 b roke
 o ur
 diffe rent
  un
 f ro
s h
 war m
S ara
 p ick
no t
a lly
e f
 f irst
He r
 ra in
 b us
 on ly
  L
l ing
 bird s
 b un
 kit c
 kitc he
 kitche n
a ck
row n
  C
 bun ny
A f
Af t
Aft er
 ma r
 m um
o ns
He l
e red
Mom m
 pa rent
ull y
 ope n
  No
 real ly
 th rough
 read y
Momm y
 beg an
 pret end
 pie c
 Jo e
 piec e
 wor ld
  Can
 watc h
 Tha t
 look s
up p
ims e
imse l
imsel f
 h imself
 mag ic
c ked
 lear n
T im
 pa p
 gra nd
 do ne
 surpris e
 butter f
  z
l t
 ma k
 mak ing
 c ut
o h
ur ned
 com ing
rom is
 cook ie
 po nd
 pap er
 da nce
m an
 d uck
 kid s
 wa ved
 wh y
if t
 t ired
 p romis
 f ix
 mo use
 wor ry
 par t
 car s
 del ic
ef ul
 da r
W ow
ill ed
is y
 hol e
 to p
 pa int
 fun ny
not he
nothe r
 use d
 see n
 tas t
J oh
ie nt
u it
 parent s
 crea t
 a nother
 tal k
Joh n
 hol d
 hopp ed
 c ried
 do ing
 block s
 far m
 p us
 than k
i ving
 l ight
 laug h
or t
i nce
 to uch
 per f
no w
 gree n
T immy
u y
 mo ve
 flo or
 cat ch
 clo t
o on
 wo od
 sm e
 ag re
D on
 tree s
 less on
 ru nning
 wind ow
 wor ked
 mo t
i z
 ba t
 year s
  -
 ma t
 be h
 beh ind
 wea r
 like s
 spo t
 wis hed
ue d
 yell ow
 bo w
 happ ily
 ba g
 sa t
  va
 f r
S am
 sl eep
 surpris ed
 fro g
 e no
 butterf ly
 se t
 caref ully
 dar k
 sl ow
 remembe red
 los t
 col d
 hel d
 her s
re n
Hel l
Hell o
c hed
  ice
 need ed
 b uy
 le f
 lef t
  O
ic h
 c ho
 c h
 any thing
 dre am
 enjoy ed
 w rong
 ar r
is h
re am
re t
 follow ed
 stra ng
 p in
s y
 child ren
s sed
a in
 delic ious
 ta b
 tab l
 finis hed
 cont in
 friend ly
 d ir
 dir t
 ho t
 s now
 A f
 hers e
 herse l
 hersel f
! Ã¢â‚¬
 Af t
 Aft er
 h ill
 tabl e
 underst and
a x
c om
 com p
ard s
 ar m
 la t
 arr ived
 m us
 ca st
 ste p
  n
 el s
 els e
 wonder f
 ba by
 wonderf ul
 m ight
 ge nt
 t ight
 forg ot
u ild
 ow n
ur n
  ve
 b ug
 Sa lly
 color s
ap p
 b uild
 broke n
 Da isy
 ab l
 abl e
 cla p
 No w
 Ben ny
  Lila
  H
. Ã¢â‚¬
 Ma y
 so ng
 pr ince
The n
 squ ir
 f ie
 f illed
 agre ed
 cast l
 castl e
 brea k
e st
 some o
 someo ne
J ack
 sha r
 contin ued
 ca nd
 h id
' l
'l l
 co unt
 want s
o k
 E m
 squir re
 squirre l
 leave s
 pin k
b er
a red
 grand m
 eno ugh
 Tom m
 The re
 Tomm y
F rom
 l ion
 mo r
 mor ning
ra nd
 mom ent
is it
 v isit
 f inally
 get t
 gett ing
ut h
 stay ed
 cookie s
 dr ive
 sme l
 some t
 somet ime
 po int
 bea ch
  K
 p upp
 fe w
 May b
 Mayb e
 sca ry
 f ight
 sometime s
 d in
 din ner
u ngry
 t urned
 h ungry
 we t
ic y
 wor d
 grandm a
 mot he
 mothe r
 W ha
 dad d
 Wha t
 ama z
 amaz ing
 try ing
 crea m
 dadd y
 perf ect
 other s
 r ide
A t
 climb ed
 T his
T his
 big g
 picture s
 st r
 me t
 wh it
 whit e
 liste ned
m ent
 alo ne
 clot he
 clothe s
 ea r
 B illy
 ta il
 h ide
 jo y
 sp l
 pupp y
 was n
 b rough
 brough t
 spa r
 de ep
io ns
 every thing
o od
 z o
 pe t
 sea r
 s it
 d rop
 spar k
l com
 da ng
 tow er
 trea t
 pull ed
a k
 b ike
 wo n
i ry
 ask s
 ro l
 fo x
ipp ed
c ket
uff y
 s ide
 ow ner
at er
 dra g
 mus ic
 te d
 ted d
 ho r
 ama zed
 wait ed
 tedd y
 tow ards
 bat h
M ay
u z
M ax
 fie ld
 la nd
f ort
 fly ing
ie t
 w his
nste r
 s illy
e ns
 share d
 ru ns
 p ra
 clo ud
g et
ist er
 mo nster
 l iving
 qu iet
 jo b
 la ke
 J en
 promis ed
 bel ie
 mo ra
 mora l
v y
 think s
 e m
May b
Mayb e
 sha p
 w ing
 clap p
o ve
 s ister
 gra t
 part y
ig g
 remembe r
 m ust
 bit e
 ga t
 mo ney
 co r
 wor ried
ns w
 a nsw
i ze
 G rand
 slow ly
 po t
e ro
 color f
 colorf ul
 sma r
 smar t
 see m
 fast er
 piece s
 bot t
 shap e
 we lcom
 grat eful
 g ift
 s uch
 na p
 bigg er
 sna ck
u nch
 bla n
 p ro
 k is
i ning
 trea s
 treas u
a ined
a nce
 tra in
 pla nt
 So m
 r ive
 rive r
 bla ck
 cand y
 prince s
 blan ket
 sc ream
 farm er
 spl a
use d
ero us
 treasu re
 magic a
 magica l
 princes s
e x
 dang erous
 mo n
W h
 drag on
 ac ros
 acros s
 mon ke
 monke y
 Dad d
 every w
 mo st
 everyw he
 everywhe re
 Dadd y
 help ing
o us
 mo uth
 jo in
Wh y
 dis app
 step p
 word s
 reac h
 thre w
 stepp ed
 hea vy
 doll s
ho ut
 sa m
e ared
 bow l
 dirt y
 tw ins
 sam e
 m ix
 cry ing
 m ine
 q ue
 do ct
 doct or
 belie ve
lt h
 Mo lly
 wa ve
 would n
a st
ra ng
 hig he
 close d
 car rot
 wa g
 hear t
."" "
M ia
 st uck
 ball oon
 fr uit
 at t
 sw am
 t urn
 sc ho
 scho o
 schoo l
 M r
s er
 hop ed
 b rown
 po p
s ket
 s uddenly
 ba sket
 to d
 feel s
l ice
 cha ir
 eat ing
 cra y
 clapp ed
 gent l
? Ã¢â‚¬
 po w
 gentl e
 fa iry
 w r
 sw im
 br ing
o lly
ventu ally
 sta nd
rang e
uz z
 d ro
 dro ve
 pus hed
l ve
 tow n
 you ng
 sho p
 welcom e
ia nt
lth y
 swing s
 wit hout
 let t
 highe r
 tod ay
 ne igh
 po cket
 o range
 co n
 h it
cide nt
 neigh b
 dr in
 drin k
 game s
 chee red
 wing s
 forg et
 expl ained
 jo ur
 sa il
 y ard
 long er
ur ns
F inally
e k
 ac cident
ha nt
 d ry
 alo ng
 Ma ry
 noise s
re ad
itt ing
 ne ck
 sa ng
 t ro
 le g
 o b
 l uck
ur ry
 sig n
nste ad
 sto ne
 t urns
 sto ries
  N
ep hant
 Em m
e ry
 sing ing
 w in
 tro ub
or n
re et
 fe nce
 l unch
ne ly
 j ar
 lo nely
 ke y
c ret
 to uc
 drop p
 dis t
 se cret
 st reet
 el ephant
 to m
 wis h
 g r
o ot
il t
l uffy
 your s
 sho ok
 explo r
 explor ing
 mo ved
 p urp
ught y
 Grand m
 near by
 kit e
 na ughty
 so up
 Grandm a
f used
b ow
 ca ught
ne ve
 back y
 backy ard
 seem ed
neve r
ught er
 dropp ed
 Emm a
  3
 b uc
 purp l
 purpl e
 buc ket
 p ho
 res p
ra p
e et
umb er
 ta k
 tak ing
c hing
 wo ke
A nd
 mis t
 mat t
 shape s
ima g
  imag
!"" "
 pa st
 co w
  Le
a ch
or d
 car d
 Tha n
 Than k
re st
 r ub
 I n
 be nch
 sound s
 wonde red
 bus y
 f it
u ice
 t iny
 wr it
 s itting
 ne st
 promis e
 rain bow
 da ughter
 pla n
 pow er
f ish
 take s
 bo r
w eet
 j uice
 hold ing
 not hing
 ma il
 come s
 arm s
c eful
 hor s
 hors e
 co at
 s ug
 bott l
 bottl e
 F luffy
 k ing
 c ir
 cir c
 P et
 I nside
 bra nch
ra id
 af raid
 l ive
 drive r
 ac t
 fore ve
 foreve r
 ma y
ile d
l ect
 car ry
 C om
 l ift
 w ide
e ze
 smel l
unt ain
 s ick
 F inally
 touc hed
 pat ient
  round
 bir t
 birt h
 hel l
 hell o
 Com e
 birth d
 birthd ay
 f ing
 fing er
 lett er
 a nt
e rest
 int erest
 sw imm
 excit ing
 sun ny
 cha ng
 o nt
 ont o
 bus h
 laug hing
 day s
 wa nd
 kne e
 jour ney
 g igg
il k
 ba nd
 creat u
 creatu re
itt ens
 brea d
He y
 re t
 cra w
 s uc
 co zy
 swimm ing
Tom m
l e
s e
c e
u re
b le
g e
he r
f ul
l a
W e
 fa ce
t e
m y
S o
 s ure
 ca ke
t ed
c o
l ie
ag e
t h
ve r
m a
t er
d er
  i
b o
A s
"" .
 f ull
g ed
 a ir
 ha ir
d y
 pleas e
m o
 app le
 go ne
 ye s
it e
p ed
ur se
d e
at e
 fa l
p e
 make s
l o
 smile s
ke r
 strang e
b e
O h
u ng
 wood s
O k
 g row
in k
if e
 j e
 c e
le a
 f re
 A my
om e
he re
 fal l
ib le
 ra ce
Ok ay
lea se
 c up
 sho e
n k
l la
u ns
O K
ble s
S ure
t ion
l et
 pla ne
H i
t y
 tea c
ra te
 J ill
w here
d ay
 co urse
f f
it h
t ing
p a
 teac her
ut e
 se l
t le
 s uns
w n
 bel o
il ing
s ing
w e
n ic
 lat e
 up s
 th row
 hug s
 pe a
u a
 shoe s
m ed
 adventure s
 wis e
l ow
 we l
 ups et
 wel l
id ge
 belo ng
ve n
D o
 star s
u nc
s on
 no se
udd le
 re lie
w ard
 rock s
us h
d ow
 hop e
ra y
ro us
B o
p y
it y
c a
 p ig
 R o
t her
b a
 relie ved
 cut e
t en
 hug e
 p ile
 i nc
 chee se
is e
bo ard
ive r
 Ma ma
 l ife
g er
ra ted
ud e
Tomm y
  ig
 w rap
 com fort
 suc ce
 m ilk
 i nstead
 watc hing
 answ er
 accident ally
 suns h
 sunsh ine
 So on
 bl e
 Sam my
rop e
 t ie
 put s
 luck y
 tal ked
 ho ney
 point ed
 give s
 p i
 col lect
p er
at her
 ro ad
 e nt
 neighb or
L ater
 sm iling
 bo ught
 any o
 anyo ne
w ay
 p uddle
 sear ched
 lat er
  rope
ba l
 sand w
ra ge
 fre e
bal l
itt en
 apple s
 sna ke
ip e
 pro ble
 proble m
ch ine
 me et
 sto r
 ma chine
p h
ide r
q ue
 in v
 love s
 interest ing
G ood
is ed
 wo man
g an
 T weet
 hea lthy
 Ma r
 circ le
 tast y
 duck s
l ue
 v ill
 J immy
 spo on
 c r
 sp ider
ime s
 cle ver
 cray ons
 p rot
 troub le
 zo om
 stor m
 cloud s
 chee r
 forg ive
 pat h
 colo ur
 p ill
 sh ining
 prot ect
 T ed
 fro nt
 smel led
 build ing
 per son
s ent
 cor ner
l eep
 n umber
 fa ir
 butt on
 pra ct
 spot ted
in ute
 scream ed
 zo o
 m inute
 pre sent
 matt er
 fe ather
C ome
 m ud
 resp ect
B e
 dance d
c ove
 r ing
 whe e
u red
 que st
 app eared
 my st
 wh ich
 writ e
 p uzz
M olly
et h
 snow man
J ust
is a
J a
 pla te
get her
 whee l
 tast e
ul ar
 w ild
 as leep
t o
 love ly
 s ur
 or gan
u nce
 dis cove
 wear ing
 gent ly
d ed
 bar k
 g iant
 place s
 go e
 goe s
t ure
 who le
et imes
 W ith
 pe n
 str ing
M um
E very
 imp re
m e
 spla s
 t ries
 tea r
 tr ip
 con fused
 Em ily
am a
 s upp
 m ind
at o
 rol led
 p ic
 tast ed
 puzz le
 b ub
 pho ne
 r ude
 o ce
 pic nic
 sc o
d ge
 pa s
 spe nt
 te eth
int ed
 sh r
l ish
itt y
 la st
 H ow
 ove n
 draw ing
 oce an
 pretend ed
 del ight
 s ne
 f urry
or row
 fee t
 mea s
 face s
 la y
un k
b ar
u ilt
 Som e
 mist a
 mista ke
 help ful
 sca r
iz z
l ate
 M ittens
 e ventually
t op
co late
 j a
 ha ng
 sm oot
 talk ing
 vill age
 sh y
 tom orrow
 lad der
 cho colate
 Jen ny
 sp read
 t id
 pa ck
 rem ind
 ea ger
J o
 co uch
 co in
 ig no
 happe n
 pus h
 po o
b ot
 fight ing
 f ur
 smoot h
 sh ir
 shir t
 treat s
uck y
 wo re
 cha sed
 too l
it a
 ble w
 st ret
 sig h
M y
 em bar
S oon
 l ine
 bug s
p ing
 la r
 embar ra
 hid ing
 c ros
 poo l
 br idge
 sa ck
 wait ing
 ro bot
 neck la
 neckla ce
 finis h
 song s
 st ir
 whe never
c ap
 sel fish
s cap
 may be
 can not
na na
lve s
op e
 lar ge
M ama
 ne t
 Ja ke
 bo unce
bo x
 lea f
 fix ed
 bar ked
 tid y
ump y
 ba nana
 Every where
ne st
 Som etimes
 was h
 sp ray
 ce le
 J ust
 cele b
 ch ic
 chic ke
 clot h
P lease
 cra b
 pract ice
D ad
 squ a
 pea ceful
d le
u na
ung le
b ed
 ho ur
 P lease
ub e
  unc
 j ungle
 fl a
 mis sed
 de ter
  '
low er
 land ed
 inv it
 deter m
 for ward
 whis tle
 embarra ssed
 ho nest
Sara h
 jump ing
 The ir
 de co
 sq ue
 W h
 jo g
g y
l ite
 tr ust
 hear s
  roo
 mo on
 stick s
 T V
od y
 po lite
 creat ive
 shar ing
mo st
 kno cked
 carrot s
 disapp o
 tea ch
 succe s
 mea dow
we l
get a
 brea th
 sto od
 ge ne
 succes s
 ve geta
 mea nt
he red
 leg s
 d ia
 tight ly
 so ur
ha med
 al most
 as hamed
 J im
 ma na
 gl ow
 gra y
p ty
 st ud
w or
 bo ne
 gre w
 tell s
 spla sh
 fe ar
 em pty
 pill ow
 a nc
ra nt
 yours e
g round
 Do n
 ro ar
 O n
 not e
 underst ood
 she ep
 be r
 car ried
d en
 L isa
 yell ed
 Wh y
 Ted dy
nd y
ita l
 nod s
vo us
 clea r
 po lice
 disappo inted
 snack s
 hour s
 myst e
 je wel
Whe re
 the se
d s
p ital
ia n
s pital
 ho spital
 sweet ie
izz a
 spark ly
 go ld
 k itten
 E ven
 sh ip
 sp r
 pa y
 sc re
 To gether
 bo red
 te st
 gene rous
 fr ust
d a
 hid den
 ta ught
 stand ing
 lo ck
 ra d
ro up
 scar f
 M um
b ody
 che w
 ret urned
 minute s
 roc ket
 gat e
 know ing
 g roup
 p izza
 mo untain
 plant s
 ea sy
 bed room
 pas s
wor k
 myste rious
 wave s
 gla s
Jo e
 sig hed
 sho re
 fa nc
 cla s
 wo l
 wol f
s ie
  ins
at ion
us ie
 Pet er
 determ ined
S top
 power ful
 F red
 thank ful
v ie
 ne r
 sandw ich
Ja ne
 f ig
 sleep y
 pi rate
 pa ssed
 dre w
c ed
' d
 d i
 close t
 je lly
 ner vous
 frust rated
 sp icy
uc e
 fanc y
a ur
s aur
 mess y
p ill
pill ar
The re
m er
 clas s
 kis sed
 G o
s pe
 re g
 so ld
no saur
u ne
 off ice
 gat hered
id dle
 po or
 cat er
 cater pillar
O n
 fl ag
 gr umpy
 e scap
 k ick
 di nosaur
 yourse l
 yoursel f
um e
 answ ered
io na
 c ries
 tw ir
A re
 of ten
  Z
 sc is
 scis s
 sciss or
 tr ick
 che st
 scissor s
 hopp ing
 tear s
ug ly
 f ill
S or
Sor ry
 tow e
 towe l
 m ummy
 R ex
 st ic
ig er
 stic ker
ha r
  ugly
 de er
ens ive
 ca ge
 excite ment
ff e
iz zy
 work ing
 m iddle
 exp ensive
itt er
 sa ved
 take n
 spa ce
 tr ue
 wag ged
 va se
 pleas ed
ut s
ua l
 bal ance
 chang e
d ic
 bor ing
 pick s
  Ca
 los e
 see k
 te nt
 ask ing
 cha se
W ho
J immy
 br ush
 comfort a
l ight
spe cial
 vegeta bles
 gigg led
 bo s
 bec ome
special ly
The ir
 get s
 Le o
 t iger
 comforta ble
 sug ar
 glas s
st a
 st uff
 pa cked
 John ny
 da nc
 danc ing
 e specially
 g ue
 ex am
 me dic
M e
 el der
 sigh t
 k night
ro r
us hed
 gl ue
 medic ine
 k n
 fruit s
 l y
 ly ing
 de st
 dist ance
 walk s
  Lo
 splas hed
 mo ving
 disapp eared
 we ek
it ch
 O K
 sme lly
 pra y
 feather s
 paint ing
 c rown
 che ck
 mom s
 l icked
 mo vie
p per
 call ing
 I f
 tw ist
 dog s
 dr um
 bath room
 play ground
p ack
lie s
 la zy
S ally
ir ror
D a
ma l
 elder ly
ve red
 inc red
 bo dy
 m irror
 comp a
?"" .
 r ul
 mat ch
 sho ot
se lves
l ax
 quest ions
 w rot
 wrot e
 all ow
B illy
g est
 yo g
p ort
 nois y
l and
 fa ther
 boa r
 m ic
 re f
 sug gest
 ta pe
 fl uffy
 sk ipped
, Ã¢â‚¬
 lo y
 loy a
 cand le
 flo at
 fam ous
 stone s
 ru ined
 r ich
 E nd
 cho o
 sw ord
 dra nk
 cont ent
 fig ure
 ra re
 que en
 ma p
 incred ible
u icy
 show s
 ha m
T o
 j uicy
umb led
 so ap
 a ng
 co vered
 dis h
 d ig
  ind
 ball s
 e dge
 sa iled
c ord
 re lax
 wea k
 co ne
A my
  ros
 meas ure
ie ld
 real ised
p ot
 discove red
urt le
 strang er
umb le
 mot or
 co ins
 need s
 bor row
 f ine
 stra w
 ho se
 B lue
J ill
 re cord
 ros e
 clea ned
 bra nc
 branc he
 branche s
 boy s
 L ittle
iz ard
We l
Wel l
i que
 je a
t or
en ny
 loya l
 chicke n
 ta g
 adventu rous
la ne
 pe e
 diff ic
 diffic ul
 off ered
 mar k
 grand pa
ke ep
 bar n
l ous
 cros s
ina tion
 lift ed
 s ize
 bub bles
 colour ful
 wha le
g led
 t urtle
  ze
M ummy
 sta ir
 difficul t
 un ique
 wa ke
keep er
 bott om
 clo wn
 organ ized
 happe ning
 co ver
 tra ck
 N e
 jea lous
 dol ph
 we ir
 sl id
 is land
da l
 kn ife
 weir d
 perf or
 S usie
s ig
 boar d
 ga rage
 f right
 mana ged
 hurt s
 pe nc
 penc il
S ue
j ect
 lo w
 craw led
 lear ning
S pot
 ar g
 sm o
 say ing
 Mar k
 de sig
 kind ne
 kindne s
 po r
 kindnes s
 comp et
 ber ries
f f
s s
l l
 coo l
 tal l
 book s
 wal l
ie s
t s
m p
 A ll
le ss
g g
 ow l
c he
er s
ie r
O f
 she ll
 ca ve
Bo b
r m
 shar p
 e gg
 s n
k ing
 ad m
c le
ke s
e e
a ble
a nt
 cal m
h y
t t
e ar
 wor m
n n
 de s
 va l
 pa w
 bel l
ke y
 pr int
No w
 kis s
che s
 f ra
a ve
 ga s
 sa ve
 rol l
ic ket
ie d
ug g
 blo w
ra ble
k in
ker s
i nning
 fee d
ng u
ne ss
 l it
 one s
 spe nd
 tra ve
 sp in
 pa in
I n
 A nn
 egg s
ine ss
la ce
 ca p
is s
o re
o ne
e ned
ip s
st ic
c ha
 la mp
e ver
 ex t
 g un
 re l
 tea m
ho ne
o om
 ext ra
Hel p
 B un
 g u
 ad d
 c ur
 le m
 w ip
o uld
 de p
 tra p
o ons
ime d
 or d
o lo
 co st
 o nce
 to ugh
 might y
 ball oons
 point ing
 favo ur
read y
 bal d
 sear ch
 h unt
ib ra
 ap olo
 t ur
 Bob by
 sold ier
 loud er
 ad ded
te ly
 favour ite
u rage
uit ar
 g uitar
 hard er
a ir
 un us
he ad
 al ready
 sp un
 choo se
ub b
 B rown
b ra
H ow
 unus ual
 l ibra
 enjoy ing
 K itty
 d izzy
 hat s
 p ump
 be ha
 belong ed
 comp let
 cheer ful
 wrap ped
ug gled
 impre ssed
 straw ber
 truck s
 mar ket
 th ick
r mal
udd y
 g iving
 g rown
k s
 he ro
 laugh s
 tr unk
 no rmal
c ep
 ear s
 fo ur
 loud ly
ill iant
a ry
He re
 proud ly
 box e
 boxe s
 br illiant
 trave l
 brother s
 circle s
 ca b
 bos sy
 so ck
 dream ed
 agai nst
 go at
 invit ed
 pa n
 sk in
 help s
 new s
 s uit
 fla sh
 pe ar
 pa ge
 mea ns
 me lt
 fright ened
 sw an
 ac cep
am e
 Pet e
 sc ra
f ast
 apolo g
 safe ly
 dep end
 butt ons
ubb orn
 sl ipped
ua ble
 st ubborn
 agre e
 cray on
f lower
 val uable
 st ream
 wall s
 happ iness
 break fast
 anc ient
 stud y
 success ful
 cla y
 know s
 cha l
 foo lish
 to ast
 ob ed
 fr idge
 fall s
 har m
 po st
e or
 delic ate
 sa l
 nice ly
 e nc
 fie r
 po ur
  rough
 dream s
m ber
 house s
 c ity
 no sy
 blo om
 fier ce
 obed ient
 M y
 tom ato
la imed
  icy
 ja cket
 compet it
 suggest ed
 To day
 sca le
 de ad
ud ge
 wag on
 exc laimed
 kind s
 mix ed
 wip ed
 che r
 use ful
 po ured
 shell s
 sto ve
 Bob o
 b ur
 light s
 tool s
 lo cked
 sound ed
 Ro se
 a unt
 excited ly
w ards
o ld
 explore d
 mea l
 so ar
 fra g
 hor n
eor ge
ib b
 sha dow
 so n
 time s
 b u
v ice
op py
ep end
 Tweet y
 bag s
 un lo
 them selves
 st umbled
 ang e
 ange l
 bus he
 bushe s
d om
 show ing
 spo iled
G rand
 finger s
 abo ve
 fo untain
 thought ful
 clo ck
 res c
ar ry
 ind epend
 small er
 do ugh
 wit ch
r ible
 gra pe
 ham mer
m et
 frag ile
 depend able
 ra ced
 sna p
 play ful
 roo f
 sp inning
 e ng
 hel met
 bright ly
 ro de
 par rot
 scra t
rm ous
o ry
 la w
 delight ed
 b uilt
c orn
 adm ired
 eno rmous
 k icked
  U
 do ve
 count ed
 j am
rig inal
 way s
 chang ed
 s ink
 sho ne
 perfor m
 sun flower
 E lla
 remind ed
 tw ig
 c ube
 sn iff
 rul e
 independ ent
 b itter
 enc o
 so lve
re lla
 You r
 gl ove
 ste a
 whis p
 eng ine
a u
 us ing
ie st
 hand ed
 whisp ered
 lea d
 ho op
un ne
 cho se
 ch ir
unne l
!"" .
umb rella
 jo lly
 Mr s
  umbrella
 strong er
 t unnel
 bee s
ll ip
 se rious
 o riginal
llip op
kno wn
 t ummy
e ll
 sa uce
 me mo
a ul
 bra ce
r rible
 te rrible
ro be
 lo llipop
 paint ed
 brace let
 pop corn
 boat s
 find ing
 allow ed
 ha iry
ia ble
 clea ning
 per s
l ope
 Be lla
 lea ving
 d ust
 gas ped
 un known
mo nd
 jo ined
 gu ard
 sal ad
 pot ato
 pump kin
S ee
up id
 met a
 pick ing
 g uilt
 cl um
 bar ber
 pr ize
ina ry
 b ump
 Ne mo
e at
 meta l
 cost ume
 ye t
 rel iable
 ta nk
ie w
 to r
 v iew
 does n
 tho se
 or der
ic he
tt i
and y
 for th
he tti
 dia mond
 ad vice
 dolph in
der n
er ry
 ha y
 mo dern
 sta t
 creat e
 think ing
 ge m
  ing
 hold s
 impre ss
 A lice
 Grand pa
 reg ular
 ing red
 ingred ient
 clum sy
 sleep ing
 sear ching
 stair s
 wea lthy
 y ar
 r ushed
 st upid
 tell ing
 Whe never
 spa g
 spag hetti
 guilt y
 hand le
 che ap
 sel l
 yar n
 came ra
 pe an
 goo se
 B a
it her
 fle x
 ope ns
 compa ss
 r id
 ar row
 ze bra
 pat ch
 stat ue
 n urse
 re ce
 end ing
 th und
 kno ck
 squa re
 f row
ro y
irst y
ug ged
 sta ge
 gra ceful
icy cle
od ile
roc odile
 dr iving
 M ike
 b ull
 cra zy
Ã¢â‚¬â €
 was hed
 cor n
 carry ing
 pop ular
 d ull
 thund er
 mar ch
 mis sing
 D ucky
M ary
 spark led
 bee tle
 friends h
 tr uth
 see ds
 flex ible
 impress ive
 tie d
 pe b
iche s
 care less
 libra ry
 imag ined
 fre sh
is ion
 na ture
 dest roy
 lem on
 pers ist
 ta p
 pat ter
 re ward
app ed
 pack age
 rub bed
 ingredient s
 dream ing
 sho cked
 gat her
 Da ve
 go a
c y
 s udden
oom y
 c rocodile
 lo ad
 ent h
 pig e
 spr ing
 en ve
 fol d
 flash light
 th irsty
 sad ly
I f
us ia
 enve lope
 S t
 cha rm
 band age
 enth usia
 wheel s
 pe pper
 friendsh ip
 read ing
 w ire
 ear ly
 mail box
 F in
 number s
 n ut
 pee ked
 Be ar
 pen ny
 butterf lies
  Look
 goa l
 cry sta
 va lue
ie f
 sp illed
 pa ra
 crysta l
 h ung
 stop s
 comp ut
 a head
 fl ute
 ope ra
 l ick
 tower s
 sor ts
 sa lt
 ob ject
ell ig
 So ph
 cra ck
 ear th
 be nt
 an x
 ce re
 sur f
 mo le
 pe ngu
 int ellig
 g um
 war ned
 s up
 window s
 M ummy
 h umble
 p up
 W hile
 unc om
re ss
 pa nt
fort able
 spe ak
 sta mp
O w
 a vo
 uncom fortable
 Ma ndy
 place d
Y ay
 sup er
 bad ly
 pa le
 gigg le
 old er
 slide s
 anx ious
 sh ine
 bigg est
 fre eze
 spark le
 v ine
 sc oot
 count ing
 grow ing
 cook ing
 sof a
 cra ne
 celeb rate
 complet e
 G ra
 me l
ho st
 pe ek
 cup board
 B ill
 harm less
y ear
 beaut y
ipp ing
 sea l
r ian
 en v
B y
 per m
 He re
 y a
 persist ent
 jump s
W hile
 ba se
 mag ne
 g host
 gift ed
 charm ing
 re fused
 com b
 G ive
q u
ia ng
 name s
 cere a
 cerea l
i no
 nea t
 co urage
ct op
 flo ur
 K im
iang le
 to e
 sh ut
 na il
 j et
 c urt
 pretend ing
c ream
 po ny
 sandw iches
 so l
 Lo la
 sn uggled
 supp ort
 To by
 t icket
 ord inary
 cha sing
 un iver
 para de
a ce
 p ia
 va n
 tr iangle
Da isy
 o ctop
 comput er
 att ra
 attra ct
 bo unc
 unc le
 rule s
 craw l
 live ly
 fl ame
 pia no
ink le
 se nd
 gl oomy
A lice
 ra ven
ub by
 intellig ent
 P at
nis hed
st r
 spe ed
 blue ber
 sha king
a id
h room
he ar
 al er
 mus hroom
 tur key
 E ventually
 creature s
 octop us
 h urry
 desig n
 twir led
 ret urn
 pho to
 l izard
 dis g
n ry
 cha nce
 mis e
 discove r
 aler t
 mise rable
 th ief
 hunt er
 sail or
 sta tion
 any where
 rad io
 d ug
 disg ust
 fire man
 b icycle
har lie
 r ibb
 e ner
co a
 car p
a ched
at or
 p ipe
 co p
ide o
 go r
co nd
 h um
 wis he
 wishe s
 res ist
 she et
 v ideo
 igno rant
 playe r
 any way
 sticker s
il ot
 scre en
 help less
 bounce d
ra ffe
i raffe
 tra sh
 se cond
G ive
 lea sh
 rep eat
 practice d
 le d
 wo o
 m uff
 mess age
 letter s
 attract ive
 f urt
 m ill
 imp at
ca se
 past a
 cr icket
 h ur
 stir red
 j eep
 stret ched
 no body
 thre ad
