h e
a n
t he
e d
an d
t o
i n
r e
w a
o u
i t
h a
e r
wa s
" "
o m
e n
o n
a r
T he
in g
i s
i l
i d
s a
l e
a y
i m
l o
a l
s t
o r
he r
H e
S he
i r
t h
n e
b e
v er
ha t
s .
u t
The y
e .
y .
c k
a t
l d
a m
s e
i g
n o
s he
sa id
k e
p l
c e
h is
s o
p p
it h
L il
v e
w ith
r i
a d
o f
u n
k ed
d ay
ver y
al l
y ou
w e
u p
t hat
l i
g o
o w
Lil y
t ed
a s
ha d
om e
m y
c h
e l
pl ay
the y
f or
m om
ou ld
n d
en d
' s
it t
en t
b o
ha pp
t im
w an
o k
l y
e t
itt le
ou nd
tim e
d o
l ittle
I t
the re
r o
a re
ou t
the r
r a
e s
h t
no t
s h
b ig
b ut
said ,
day ,
s m
sa w
" O
a ck
T im
ri end
f riend
u l
th ing
s ome
n ce
t er
' t
v ed
a ke
"O nce
u g
we re
O ne
ed .
h im
! ""
h o
up on
a g
c ar
ir l
wan ted
g irl
happ y
r y
s p
e c
on e
f ul
. "
in d
the m
c ould
u r
id e
c o
T om
il l
e x
d id
he n
sm il
the ir
m o
y s
time ,
w ent
i c
r om
he l
ne w
B en
f e
n am
ha ve
g e
B ut
o d
f el
n 't
hel p
. ""
u m
ig ht
c an
he d
b ack
a b
ar k
m e
nam ed
r an
a in
f o
? ""
f un
lo ved
m an
st ar
g r
to o
l a
li ke
it .
fel t
ou g
Tim my
lo o
as ked
Y ou
i ck
ow n
s to
ar ound
lo w
ar d
loo ked
u re
w ould
b ir
am e
w or
o p
f a
M om
se e
m ake
on g
bir d
l l
s ,
p r
bo y
c a
t re
no w
a wa
o ther
wan t
m ad
w hat
star ted
ge ther
â €
d d
smil ed
s ide
c ame
y ,
ou d
to gether
some thing
c it
mad e
p ut
p ark
g et
go t
sa d
ex cit
f rom
p e
t .
lo ok
p o
m u
i f
the n
f ound
n a
ag ain
wa l
i e
s car
b r
ing .
d ec
w ho
go od
h ug
"" I
w hen
a ch
e p
q u
said .
oug ht
mo re
S u
pp ed
s s
, ""
"" W
a c
i ce
id ed
b b
u ck
e very
ou s
dec ided
t s
a ve
play ing
er .
ri ed
li ked
u se
k ing
d own
a x
S am
do g
friend s
c are
wa ys
f ind
th an
ha r
u st
d er
M ax
on ,
j o
ar n
al ways
d ad
w o
Lil y.
fe el
did n't
happ y.
you r
A n
ar a
t ake
to ok
c lo
S o
sp ec
b y
ab out
excit ed
p re
to y
S ara
o ld
he re
sa y
n y
ou r
w h
m a
W hen
le arn
c at
k new
k now
fo re
th ought
b u
mom my
all y
i al
J o
An na
dd en
spec ial
ro om
w ill
an t
friend s.
ly ,
la ug
ed ,
f ter
H er
on 't
ne ver
g ed
e ar
"" T
s or
le .
E very
t r
h ow
is h
mu ch
an y
