{
  "!": 0,
  "\"": 1,
  "#": 2,
  "$": 3,
  "&": 4,
  "'": 5,
  "(": 6,
  ")": 7,
  "*": 8,
  "+": 9,
  ",": 10,
  "-": 11,
  ".": 12,
  "/": 13,
  "0": 14,
  "1": 15,
  "2": 16,
  "3": 17,
  "4": 18,
  "5": 19,
  "6": 20,
  "7": 21,
  "8": 22,
  "9": 23,
  ":": 24,
  ";": 25,
  "<": 26,
  "?": 27,
  "A": 28,
  "B": 29,
  "C": 30,
  "D": 31,
  "E": 32,
  "F": 33,
  "G": 34,
  "H": 35,
  "I": 36,
  "J": 37,
  "K": 38,
  "L": 39,
  "M": 40,
  "N": 41,
  "O": 42,
  "P": 43,
  "Q": 44,
  "R": 45,
  "S": 46,
  "T": 47,
  "U": 48,
  "V": 49,
  "W": 50,
  "X": 51,
  "Y": 52,
  "Z": 53,
  "a": 54,
  "b": 55,
  "c": 56,
  "d": 57,
  "e": 58,
  "f": 59,
  "g": 60,
  "h": 61,
  "i": 62,
  "j": 63,
  "k": 64,
  "l": 65,
  "m": 66,
  "n": 67,
  "o": 68,
  "p": 69,
  "q": 70,
  "r": 71,
  "s": 72,
  "t": 73,
  "u": 74,
  "v": 75,
  "w": 76,
  "x": 77,
  "y": 78,
  "z": 79,
  "¦": 80,
  "©": 81,
  "­": 82,
  "±": 83,
  "´": 84,
  "Â": 85,
  "Ã": 86,
  "â": 87,
  "ð": 88,
  "œ": 89,
  "Š": 90,
  "Ÿ": 91,
  "Ž": 92,
  "˜": 93,
  "“": 94,
  "”": 95,
  "‹": 96,
  "€": 97,
  "™": 98,
  "he": 99,
  "an": 100,
  "the": 101,
  "ed": 102,
  "and": 103,
  "to": 104,
  "in": 105,
  "re": 106,
  "wa": 107,
  "ou": 108,
  "it": 109,
  "ha": 110,
  "er": 111,
  "was": 112,
  "\"\"": 113,
  "om": 114,
  "en": 115,
  "on": 116,
  "ar": 117,
  "The": 118,
  "ing": 119,
  "is": 120,
  "il": 121,
  "id": 122,
  "sa": 123,
  "le": 124,
  "ay": 125,
  "im": 126,
  "lo": 127,
  "al": 128,
  "st": 129,
  "or": 130,
  "her": 131,
  "He": 132,
  "She": 133,
  "ir": 134,
  "th": 135,
  "ne": 136,
  "be": 137,
  "ver": 138,
  "hat": 139,
  "s.": 140,
  "ut": 141,
  "They": 142,
  "e.": 143,
  "y.": 144,
  "ck": 145,
  "at": 146,
  "ld": 147,
  "am": 148,
  "se": 149,
  "ig": 150,
  "no": 151,
  "she": 152,
  "said": 153,
  "ke": 154,
  "pl": 155,
  "ce": 156,
  "his": 157,
  "so": 158,
  "pp": 159,
  "ith": 160,
  "Lil": 161,
  "ve": 162,
  "with": 163,
  "ri": 164,
  "ad": 165,
  "of": 166,
  "un": 167,
  "ked": 168,
  "day": 169,
  "very": 170,
  "all": 171,
  "you": 172,
  "we": 173,
  "up": 174,
  "that": 175,
  "li": 176,
  "go": 177,
  "ow": 178,
  "Lily": 179,
  "ted": 180,
  "as": 181,
  "had": 182,
  "ome": 183,
  "my": 184,
  "ch": 185,
  "el": 186,
  "play": 187,
  "they": 188,
  "for": 189,
  "mom": 190,
  "ould": 191,
  "nd": 192,
  "end": 193,
  "'s": 194,
  "itt": 195,
  "ent": 196,
  "bo": 197,
  "happ": 198,
  "tim": 199,
  "wan": 200,
  "ok": 201,
  "ly": 202,
  "et": 203,
  "ittle": 204,
  "ound": 205,
  "time": 206,
  "do": 207,
  "little": 208,
  "It": 209,
  "there": 210,
  "ro": 211,
  "are": 212,
  "out": 213,
  "ther": 214,
  "ra": 215,
  "es": 216,
  "ht": 217,
  "not": 218,
  "sh": 219,
  "big": 220,
  "but": 221,
  "said,": 222,
  "day,": 223,
  "sm": 224,
  "saw": 225,
  "\"O": 226,
  "ack": 227,
  "Tim": 228,
  "riend": 229,
  "friend": 230,
  "ul": 231,
  "thing": 232,
  "some": 233,
  "nce": 234,
  "ter": 235,
  "'t": 236,
  "ved": 237,
  "ake": 238,
  "\"Once": 239,
  "ug": 240,
  "were": 241,
  "One": 242,
  "ed.": 243,
  "him": 244,
  "!\"\"": 245,
  "ho": 246,
  "upon": 247,
  "ag": 248,
  "car": 249,
  "irl": 250,
  "wanted": 251,
  "girl": 252,
  "happy": 253,
  "ry": 254,
  "sp": 255,
  "ec": 256,
  "one": 257,
  "ful": 258,
  ".\"": 259,
  "ind": 260,
  "them": 261,
  "could": 262,
  "ur": 263,
  "ide": 264,
  "co": 265,
  "Tom": 266,
  "ill": 267,
  "ex": 268,
  "did": 269,
  "hen": 270,
  "smil": 271,
  "their": 272,
  "mo": 273,
  "ys": 274,
  "time,": 275,
  "went": 276,
  "ic": 277,
  "rom": 278,
  "hel": 279,
  "new": 280,
  "Ben": 281,
  "fe": 282,
  "nam": 283,
  "have": 284,
  "ge": 285,
  "But": 286,
  "od": 287,
  "fel": 288,
  "n't": 289,
  "help": 290,
  ".\"\"": 291,
  "um": 292,
  "ight": 293,
  "can": 294,
  "hed": 295,
  "back": 296,
  "ab": 297,
  "ark": 298,
  "me": 299,
  "named": 300,
  "ran": 301,
  "ain": 302,
  "fo": 303,
  "?\"\"": 304,
  "fun": 305,
  "loved": 306,
  "man": 307,
  "star": 308,
  "gr": 309,
  "too": 310,
  "la": 311,
  "like": 312,
  "it.": 313,
  "felt": 314,
  "oug": 315,
  "Timmy": 316,
  "loo": 317,
  "asked": 318,
  "You": 319,
  "ick": 320,
  "own": 321,
  "sto": 322,
  "around": 323,
  "low": 324,
  "ard": 325,
  "looked": 326,
  "ure": 327,
  "would": 328,
  "bir": 329,
  "ame": 330,
  "wor": 331,
  "op": 332,
  "fa": 333,
  "Mom": 334,
  "see": 335,
  "make": 336,
  "ong": 337,
  "bird": 338,
  "ll": 339,
  "s,": 340,
  "pr": 341,
  "boy": 342,
  "ca": 343,
  "tre": 344,
  "now": 345,
  "awa": 346,
  "other": 347,
  "want": 348,
  "mad": 349,
  "what": 350,
  "started": 351,
  "gether": 352,
  "â€": 353,
  "dd": 354,
  "smiled": 355,
  "side": 356,
  "came": 357,
  "y,": 358,
  "oud": 359,
  "together": 360,
  "something": 361,
  "cit": 362,
  "made": 363,
  "put": 364,
  "park": 365,
  "get": 366,
  "got": 367,
  "sad": 368,
  "excit": 369,
  "from": 370,
  "pe": 371,
  "t.": 372,
  "look": 373,
  "po": 374,
  "mu": 375,
  "if": 376,
  "then": 377,
  "found": 378,
  "na": 379,
  "again": 380,
  "wal": 381,
  "ie": 382,
  "scar": 383,
  "br": 384,
  "ing.": 385,
  "dec": 386,
  "who": 387,
  "good": 388,
  "hug": 389,
  "\"\"I": 390,
  "when": 391,
  "ach": 392,
  "ep": 393,
  "qu": 394,
  "said.": 395,
  "ought": 396,
  "more": 397,
  "Su": 398,
  "pped": 399,
  "ss": 400,
  ",\"\"": 401,
  "\"\"W": 402,
  "ac": 403,
  "ice": 404,
  "ided": 405,
  "bb": 406,
  "uck": 407,
  "every": 408,
  "ous": 409,
  "decided": 410,
  "ts": 411,
  "ave": 412,
  "playing": 413,
  "er.": 414,
  "ried": 415,
  "liked": 416,
  "use": 417,
  "king": 418,
  "down": 419,
  "ax": 420,
  "Sam": 421,
  "dog": 422,
  "friends": 423,
  "care": 424,
  "ways": 425,
  "find": 426,
  "than": 427,
  "har": 428,
  "ust": 429,
  "der": 430,
  "Max": 431,
  "on,": 432,
  "jo": 433,
  "arn": 434,
  "always": 435,
  "dad": 436,
  "wo": 437,
  "Lily.": 438,
  "feel": 439,
  "didn't": 440,
  "happy.": 441,
  "your": 442,
  "An": 443,
  "ara": 444,
  "take": 445,
  "took": 446,
  "clo": 447,
  "So": 448,
  "spec": 449,
  "by": 450,
  "about": 451,
  "excited": 452,
  "pre": 453,
  "toy": 454,
  "Sara": 455,
  "old": 456,
  "here": 457,
  "say": 458,
  "ny": 459,
  "our": 460,
  "wh": 461,
  "ma": 462,
  "When": 463,
  "learn": 464,
  "cat": 465,
  "knew": 466,
  "know": 467,
  "fore": 468,
  "thought": 469,
  "bu": 470,
  "mommy": 471,
  "ally": 472,
  "ial": 473,
  "Jo": 474,
  "Anna": 475,
  "dden": 476,
  "special": 477,
  "room": 478,
  "will": 479,
  "ant": 480,
  "friends.": 481,
  "ly,": 482,
  "laug": 483,
  "ed,": 484,
  "fter": 485,
  "Her": 486,
  "on't": 487,
  "never": 488,
  "ged": 489,
  "ear": 490,
  "\"\"T": 491,
  "sor": 492,
  "le.": 493,
  "Every": 494,
  "tr": 495,
  "how": 496,
  "ish": 497,
  "much": 498,
  "any": 499
}